#ifndef __MODEL_FLATBUFFER_FP32_H
#define __MODEL_FLATBUFFER_FP32_H
const unsigned char model_flatbuffer_fp32[] = {
  0x1c, 0x00, 0x00, 0x00, 0x54, 0x46, 0x4c, 0x33, 0x14, 0x00, 0x20, 0x00, 0x1c, 0x00, 0x18, 0x00, 0x14, 0x00, 0x10, 0x00,
  0x0c, 0x00, 0x00, 0x00, 0x08, 0x00, 0x04, 0x00, 0x14, 0x00, 0x00, 0x00, 0x1c, 0x00, 0x00, 0x00, 0x98, 0x00, 0x00, 0x00,
  0xf0, 0x00, 0x00, 0x00, 0x88, 0x11, 0x00, 0x00, 0x98, 0x11, 0x00, 0x00, 0xc0, 0x13, 0x00, 0x00, 0x03, 0x00, 0x00, 0x00,
  0x01, 0x00, 0x00, 0x00, 0x10, 0x00, 0x00, 0x00, 0x00, 0x00, 0x0a, 0x00, 0x10, 0x00, 0x0c, 0x00, 0x08, 0x00, 0x04, 0x00,
  0x0a, 0x00, 0x00, 0x00, 0x0c, 0x00, 0x00, 0x00, 0x1c, 0x00, 0x00, 0x00, 0x3c, 0x00, 0x00, 0x00, 0x0f, 0x00, 0x00, 0x00,
  0x73, 0x65, 0x72, 0x76, 0x69, 0x6e, 0x67, 0x5f, 0x64, 0x65, 0x66, 0x61, 0x75, 0x6c, 0x74, 0x00, 0x01, 0x00, 0x00, 0x00,
  0x04, 0x00, 0x00, 0x00, 0x90, 0xff, 0xff, 0xff, 0x03, 0x00, 0x00, 0x00, 0x04, 0x00, 0x00, 0x00, 0x08, 0x00, 0x00, 0x00,
  0x6f, 0x75, 0x74, 0x70, 0x75, 0x74, 0x5f, 0x30, 0x00, 0x00, 0x00, 0x00, 0x01, 0x00, 0x00, 0x00, 0x04, 0x00, 0x00, 0x00,
  0x2e, 0xef, 0xff, 0xff, 0x04, 0x00, 0x00, 0x00, 0x0c, 0x00, 0x00, 0x00, 0x6b, 0x65, 0x72, 0x61, 0x73, 0x5f, 0x74, 0x65,
  0x6e, 0x73, 0x6f, 0x72, 0x00, 0x00, 0x00, 0x00, 0x02, 0x00, 0x00, 0x00, 0x34, 0x00, 0x00, 0x00, 0x04, 0x00, 0x00, 0x00,
  0xdc, 0xff, 0xff, 0xff, 0x06, 0x00, 0x00, 0x00, 0x04, 0x00, 0x00, 0x00, 0x13, 0x00, 0x00, 0x00, 0x43, 0x4f, 0x4e, 0x56,
  0x45, 0x52, 0x53, 0x49, 0x4f, 0x4e, 0x5f, 0x4d, 0x45, 0x54, 0x41, 0x44, 0x41, 0x54, 0x41, 0x00, 0x08, 0x00, 0x0c, 0x00,
  0x08, 0x00, 0x04, 0x00, 0x08, 0x00, 0x00, 0x00, 0x05, 0x00, 0x00, 0x00, 0x04, 0x00, 0x00, 0x00, 0x13, 0x00, 0x00, 0x00,
  0x6d, 0x69, 0x6e, 0x5f, 0x72, 0x75, 0x6e, 0x74, 0x69, 0x6d, 0x65, 0x5f, 0x76, 0x65, 0x72, 0x73, 0x69, 0x6f, 0x6e, 0x00,
  0x07, 0x00, 0x00, 0x00, 0x94, 0x10, 0x00, 0x00, 0x8c, 0x10, 0x00, 0x00, 0x54, 0x10, 0x00, 0x00, 0x9c, 0x00, 0x00, 0x00,
  0x94, 0x00, 0x00, 0x00, 0x74, 0x00, 0x00, 0x00, 0x04, 0x00, 0x00, 0x00, 0xc6, 0xef, 0xff, 0xff, 0x04, 0x00, 0x00, 0x00,
  0x60, 0x00, 0x00, 0x00, 0x10, 0x00, 0x00, 0x00, 0x00, 0x00, 0x00, 0x00, 0x08, 0x00, 0x0e, 0x00, 0x08, 0x00, 0x04, 0x00,
  0x08, 0x00, 0x00, 0x00, 0x10, 0x00, 0x00, 0x00, 0x24, 0x00, 0x00, 0x00, 0x00, 0x00, 0x06, 0x00, 0x08, 0x00, 0x04, 0x00,
  0x06, 0x00, 0x00, 0x00, 0x04, 0x00, 0x00, 0x00, 0x00, 0x00, 0x00, 0x00, 0x0c, 0x00, 0x18, 0x00, 0x14, 0x00, 0x10, 0x00,
  0x0c, 0x00, 0x04, 0x00, 0x0c, 0x00, 0x00, 0x00, 0x49, 0x18, 0x22, 0xcf, 0x4f, 0x62, 0xdb, 0x1d, 0x02, 0x00, 0x00, 0x00,
  0x02, 0x00, 0x00, 0x00, 0x04, 0x00, 0x00, 0x00, 0x06, 0x00, 0x00, 0x00, 0x32, 0x2e, 0x31, 0x38, 0x2e, 0x30, 0x00, 0x00,
  0x32, 0xf0, 0xff, 0xff, 0x04, 0x00, 0x00, 0x00, 0x10, 0x00, 0x00, 0x00, 0x31, 0x2e, 0x35, 0x2e, 0x30, 0x00, 0x00, 0x00,
  0x00, 0x00, 0x00, 0x00, 0x00, 0x00, 0x00, 0x00, 0x04, 0xee, 0xff, 0xff, 0x52, 0xf0, 0xff, 0xff, 0x04, 0x00, 0x00, 0x00,
  0xa0, 0x0f, 0x00, 0x00, 0xdd, 0x68, 0x19, 0xbf, 0xbf, 0x67, 0x3c, 0xbe, 0x00, 0x30, 0xac, 0x3f, 0x09, 0xff, 0x44, 0x3e,
  0x6c, 0x5c, 0x3e, 0x3f, 0x68, 0x70, 0x02, 0x3f, 0x8f, 0xd3, 0xb4, 0xbe, 0xeb, 0x7a, 0xb9, 0x3f, 0x3b, 0x54, 0x62, 0xbf,
  0x8d, 0xde, 0xaa, 0xbf, 0x83, 0xaf, 0x18, 0xbf, 0xf4, 0xdf, 0x6a, 0xbf, 0x66, 0xfa, 0x01, 0xc0, 0x8e, 0x7b, 0xda, 0x3f,
  0xc1, 0x65, 0x97, 0xbe, 0xfa, 0x23, 0xcc, 0x3f, 0xaa, 0x0c, 0xe5, 0xbf, 0x29, 0xab, 0xff, 0xbd, 0x2b, 0x44, 0xa6, 0xbd,
  0xaa, 0x8e, 0x33, 0x3e, 0x63, 0x1a, 0x08, 0xbe, 0x11, 0xea, 0x82, 0x3f, 0x12, 0x92, 0x40, 0x3f, 0x8e, 0xd5, 0x34, 0x3f,
  0xf8, 0x7e, 0x40, 0xbf, 0xec, 0xc0, 0xc7, 0x3d, 0x39, 0x23, 0xe8, 0xbc, 0xd9, 0xe2, 0x79, 0xbf, 0x22, 0xb3, 0x76, 0x3e,
  0x27, 0x67, 0x8e, 0x3f, 0x4c, 0x30, 0x93, 0xbf, 0x30, 0x15, 0x53, 0x3e, 0x01, 0x99, 0x5e, 0xbe, 0x66, 0xf5, 0x99, 0x3e,
  0x34, 0x12, 0x21, 0xc0, 0x2a, 0x26, 0xbd, 0xbd, 0x43, 0xf4, 0x0e, 0xc0, 0x20, 0x2f, 0xb4, 0xbf, 0x13, 0x5a, 0x2c, 0xbf,
  0x4b, 0x3d, 0xae, 0x3f, 0x1e, 0x71, 0xbd, 0xbf, 0x53, 0x7d, 0xaf, 0xbe, 0xe5, 0x5a, 0x02, 0x40, 0x04, 0x7e, 0xe9, 0xbe,
  0xac, 0x33, 0xdf, 0x3e, 0x18, 0x3f, 0x8f, 0xbe, 0x0f, 0x20, 0xca, 0xbf, 0x36, 0xc0, 0xe5, 0xbe, 0xb6, 0xee, 0x6b, 0xbe,
  0x9c, 0x8c, 0x91, 0xbf, 0x18, 0x5a, 0x52, 0x3f, 0x3b, 0x31, 0xbe, 0x3e, 0x59, 0xd4, 0x9e, 0x3f, 0x5b, 0xb2, 0x71, 0xbf,
  0x8d, 0x7b, 0x24, 0x3e, 0xb4, 0x34, 0xd7, 0xbf, 0x89, 0xab, 0xe9, 0x3e, 0x2e, 0x0c, 0x00, 0x3f, 0x54, 0xe3, 0x80, 0xbf,
  0xba, 0x08, 0xc2, 0x3f, 0x0d, 0x6e, 0x0e, 0xc0, 0x1a, 0x73, 0xf2, 0xbe, 0xf2, 0x52, 0x40, 0xbd, 0xca, 0xdf, 0xa6, 0x3f,
  0xd8, 0x41, 0x49, 0xbf, 0x58, 0xcb, 0x61, 0xbe, 0x6b, 0x99, 0xb2, 0x3e, 0x2c, 0x89, 0x92, 0x3f, 0x2d, 0x46, 0xb3, 0x3e,
  0x8b, 0x57, 0xd0, 0xbe, 0x9f, 0x39, 0xc3, 0x3f, 0x36, 0x75, 0x13, 0x40, 0x43, 0x95, 0x1e, 0xbf, 0xe0, 0x15, 0x32, 0x3e,
  0x46, 0x00, 0xd3, 0xbf, 0x52, 0xc4, 0xbf, 0xbe, 0x00, 0x5d, 0xd4, 0xbd, 0x2f, 0x0a, 0x25, 0x3f, 0x62, 0x6d, 0xa6, 0xbf,
  0x63, 0x85, 0x2b, 0xbf, 0xed, 0xea, 0xba, 0x3f, 0xf4, 0xd5, 0xf4, 0x3f, 0xf4, 0x3c, 0x39, 0x3f, 0x51, 0x88, 0xad, 0xbf,
  0x92, 0x10, 0x9e, 0x3d, 0xdf, 0xef, 0x28, 0xbf, 0x74, 0xa9, 0x2c, 0xbf, 0xb0, 0x49, 0x3c, 0xbe, 0xa6, 0xf9, 0xa3, 0x3f,
  0xe5, 0xfb, 0x05, 0x3f, 0xc5, 0xd2, 0x65, 0xbe, 0x5f, 0x5e, 0x98, 0x3e, 0xd1, 0x41, 0x5b, 0x3f, 0xaa, 0xcf, 0x5d, 0x3f,
  0xbe, 0xa2, 0x13, 0xbf, 0x17, 0x44, 0x66, 0x3e, 0x3c, 0xa3, 0xb1, 0x3e, 0xe6, 0xd1, 0xa7, 0x3f, 0xfc, 0x94, 0xbb, 0xbe,
  0xa0, 0x04, 0x56, 0x3e, 0x27, 0x29, 0xc3, 0xbf, 0x29, 0x39, 0x96, 0xbf, 0xfd, 0xc5, 0x80, 0x3e, 0x93, 0x32, 0xfe, 0x3e,
  0x32, 0x4f, 0xe1, 0x3e, 0x25, 0x72, 0x6d, 0xbf, 0xdd, 0x42, 0xe9, 0x3e, 0xd2, 0xf7, 0x06, 0xbf, 0x3f, 0xac, 0x93, 0x3e,
  0x38, 0xa0, 0x14, 0xbf, 0xe4, 0xdc, 0xe7, 0x3f, 0x35, 0xf9, 0x5f, 0x3f, 0x10, 0x61, 0xb3, 0xbe, 0x05, 0x9f, 0xc8, 0xbe,
  0xe1, 0xbd, 0xd1, 0xbd, 0xf2, 0xf6, 0xac, 0x3e, 0x10, 0x9e, 0x96, 0x3f, 0x57, 0x55, 0x37, 0xbf, 0xc5, 0x37, 0x10, 0x40,
  0x08, 0xd7, 0xfa, 0xbe, 0x7d, 0x5f, 0x95, 0x3f, 0x00, 0xd7, 0x1f, 0x3c, 0x96, 0xe2, 0x42, 0xbe, 0xd7, 0xcb, 0x66, 0xbf,
  0x2b, 0xc9, 0xaa, 0xbd, 0x1b, 0x4f, 0x80, 0x3f, 0x55, 0x40, 0xeb, 0xbc, 0x2b, 0xa5, 0x9e, 0x3e, 0x0e, 0xcc, 0x9e, 0xbe,
  0x28, 0xe2, 0x8c, 0xbf, 0x58, 0xf8, 0xa2, 0x3f, 0x38, 0xf0, 0x1a, 0x3f, 0xd9, 0x6c, 0x89, 0xbf, 0x37, 0x17, 0xb9, 0x3f,
  0x4d, 0xe5, 0x4b, 0x3f, 0x33, 0xae, 0x86, 0xbf, 0x2b, 0x0c, 0x86, 0x3d, 0xbc, 0x9e, 0x24, 0xc0, 0x5b, 0xa0, 0x0c, 0xc0,
  0xb9, 0x4c, 0xe6, 0xbe, 0xa1, 0x9f, 0xef, 0x3e, 0x01, 0xd2, 0x94, 0x3f, 0x40, 0x43, 0x70, 0xbf, 0x95, 0x03, 0x03, 0x3f,
  0x7b, 0xcc, 0x74, 0xbf, 0x6d, 0x3d, 0x31, 0xbe, 0x2a, 0x3e, 0x06, 0x3f, 0xbc, 0x5d, 0xfd, 0x3f, 0xc6, 0x8e, 0x3f, 0xbf,
  0x15, 0x77, 0x51, 0xbe, 0x88, 0x1d, 0xbe, 0xbe, 0x21, 0x14, 0x0c, 0x40, 0x2f, 0x38, 0xe4, 0xbc, 0x12, 0x71, 0x7c, 0x3f,
  0x51, 0x54, 0xc9, 0xbd, 0x8c, 0x9d, 0x4e, 0xbe, 0x46, 0xea, 0x67, 0xbf, 0xff, 0xd9, 0xdb, 0xbe, 0x04, 0x80, 0xa2, 0x3f,
  0x25, 0xe4, 0x81, 0xbf, 0x43, 0x61, 0xe7, 0x3f, 0xc2, 0x17, 0xa7, 0xbf, 0x9b, 0xfd, 0x8e, 0x3f, 0x7b, 0xc3, 0x64, 0x3e,
  0x79, 0x99, 0xd5, 0x3d, 0x5b, 0x7e, 0xbe, 0x3e, 0x6c, 0x9a, 0x59, 0x3f, 0x1b, 0x45, 0x10, 0xbf, 0x2e, 0xcc, 0xc5, 0x3f,
  0x07, 0x84, 0xee, 0xbc, 0xac, 0xd0, 0xb5, 0x3f, 0x81, 0x90, 0x39, 0x3f, 0xf2, 0x63, 0x37, 0x3f, 0x67, 0x04, 0x29, 0xbf,
  0x02, 0x2d, 0x99, 0xbf, 0x38, 0x91, 0x95, 0x3f, 0xf4, 0x49, 0xb0, 0xbf, 0x48, 0x47, 0x8e, 0x3e, 0x75, 0x61, 0x93, 0x3f,
  0x2c, 0x8a, 0xab, 0xbe, 0x37, 0x39, 0x90, 0x3f, 0xe4, 0x4e, 0xe9, 0x3e, 0x0d, 0xe0, 0x71, 0xbe, 0x39, 0x7e, 0x43, 0xbf,
  0x5e, 0xaf, 0xb5, 0x3f, 0xe6, 0xa2, 0x3f, 0xbf, 0x5e, 0x81, 0xb7, 0x3e, 0x48, 0xc8, 0xb6, 0xbf, 0x4c, 0xd7, 0x33, 0xbf,
  0x5f, 0x99, 0x3c, 0xbf, 0x94, 0x44, 0xad, 0xbf, 0x20, 0x1d, 0xcf, 0x3e, 0x47, 0x67, 0x9f, 0xbe, 0x7a, 0xd9, 0x5e, 0xbf,
  0x3a, 0xfb, 0xea, 0x3e, 0x7f, 0x18, 0xcd, 0x3f, 0x5a, 0x90, 0xc2, 0xbe, 0xd7, 0x29, 0x18, 0x3f, 0x56, 0x69, 0x82, 0x3f,
  0xd7, 0x7b, 0x24, 0xbf, 0x56, 0x03, 0x05, 0xbf, 0x64, 0x56, 0xd3, 0xbe, 0x5d, 0xbd, 0xfe, 0xbe, 0x12, 0x70, 0x29, 0x3f,
  0x63, 0x9b, 0x9c, 0xbf, 0x01, 0x52, 0xde, 0xbe, 0xbe, 0xa5, 0x19, 0x3e, 0xc2, 0xb4, 0x56, 0x3f, 0xd2, 0x25, 0x9d, 0xbe,
  0xe6, 0x5d, 0xf6, 0xbf, 0x46, 0x93, 0x62, 0x3e, 0xa2, 0xef, 0x9b, 0xbf, 0x39, 0xed, 0xd5, 0x3f, 0xef, 0x85, 0x2e, 0x3e,
  0xa8, 0x1a, 0xe0, 0x3f, 0x53, 0xae, 0x24, 0xbf, 0xd6, 0x75, 0x51, 0x3d, 0x39, 0xd8, 0x59, 0x3f, 0x9d, 0xeb, 0x75, 0x3e,
  0xd4, 0xfc, 0xd5, 0xbf, 0x01, 0xc7, 0xb4, 0x3c, 0x37, 0x1e, 0x8f, 0xbf, 0x4c, 0xf2, 0xbf, 0xbf, 0xb0, 0x74, 0x02, 0x3f,
  0xda, 0x9a, 0xad, 0xbe, 0x48, 0xdf, 0xaf, 0xbe, 0x08, 0xc6, 0x00, 0xbe, 0x5d, 0xba, 0x15, 0xbb, 0x3e, 0xfa, 0x26, 0x3f,
  0xd1, 0x25, 0x44, 0xbf, 0x46, 0x1e, 0x28, 0xbf, 0xea, 0x51, 0x2e, 0xbf, 0xcd, 0xe0, 0x9a, 0xbe, 0xaf, 0x4d, 0x5f, 0xbf,
  0xc8, 0x37, 0xdd, 0xbf, 0x8c, 0xce, 0x8a, 0xbf, 0x76, 0xf2, 0x09, 0x3f, 0xd7, 0xae, 0x1f, 0xbf, 0x15, 0xbe, 0x11, 0xbf,
  0x6e, 0x3b, 0x75, 0x3f, 0xf7, 0x9e, 0xad, 0xbd, 0x06, 0x9e, 0xcf, 0x3c, 0x6c, 0xfc, 0x96, 0xbe, 0xe4, 0xb1, 0xf1, 0xbe,
  0xb8, 0x95, 0xa4, 0xbf, 0xe3, 0x8c, 0xe2, 0x3e, 0xb3, 0x81, 0x26, 0x3e, 0x8e, 0x56, 0xad, 0xbd, 0xa3, 0x99, 0x9c, 0x3f,
  0xad, 0x0a, 0x51, 0xbf, 0x2f, 0xdf, 0x41, 0x3e, 0xac, 0x7e, 0xb8, 0xbf, 0xc0, 0x45, 0xb5, 0xbf, 0xce, 0x84, 0xe3, 0x3d,
  0xd6, 0x0e, 0x31, 0xbd, 0x2a, 0x19, 0xdd, 0xbf, 0x9f, 0xf8, 0x08, 0xbf, 0x12, 0xb0, 0x2b, 0xbe, 0x06, 0xfa, 0xd8, 0xbe,
  0xeb, 0x89, 0x03, 0xbf, 0xd1, 0x05, 0x82, 0x3f, 0xab, 0x7b, 0x34, 0xbe, 0x5e, 0xc2, 0x4f, 0xbe, 0x9f, 0xf4, 0xa3, 0xbe,
  0xd3, 0x67, 0x36, 0x3f, 0x00, 0x94, 0xcf, 0xbc, 0x77, 0xd1, 0x74, 0x3f, 0x60, 0x5d, 0x60, 0xbf, 0x6a, 0x3b, 0x5b, 0x3f,
  0x4c, 0x4a, 0xfb, 0x3f, 0x93, 0x0c, 0xb3, 0x3f, 0x03, 0x26, 0x0d, 0x40, 0xa0, 0xe3, 0xb6, 0xbe, 0x2d, 0xeb, 0x12, 0xbf,
  0x0f, 0x94, 0x07, 0xbf, 0x9d, 0xbe, 0xcd, 0xbc, 0x60, 0x6d, 0xb6, 0xbe, 0x63, 0x1c, 0xaf, 0xbe, 0x01, 0xd4, 0x81, 0x3f,
  0xdb, 0x3c, 0x51, 0x3f, 0xa8, 0x72, 0x99, 0x3e, 0x0e, 0x22, 0x65, 0x3f, 0xad, 0x6f, 0xb3, 0xbf, 0x15, 0xe4, 0x4d, 0x3f,
  0xa6, 0x5c, 0x5c, 0xbf, 0x6b, 0x43, 0x96, 0x3f, 0xa7, 0x4b, 0xcc, 0xbf, 0x35, 0xaa, 0x9b, 0xbe, 0x0f, 0x3b, 0x15, 0xbe,
  0xde, 0xd0, 0xa7, 0xbf, 0xce, 0x3e, 0x02, 0xbf, 0xb1, 0x41, 0x26, 0xbf, 0xfb, 0xa8, 0xbd, 0x3f, 0x55, 0x5a, 0x50, 0xbf,
  0xbd, 0xa3, 0xdb, 0x3f, 0x08, 0x2c, 0xa1, 0xbf, 0xdd, 0x76, 0x61, 0xbf, 0xe1, 0x74, 0xda, 0x3e, 0x34, 0x9e, 0xc9, 0xbf,
  0x2c, 0x3d, 0x38, 0x3d, 0x30, 0x95, 0xbb, 0x3e, 0x73, 0x2e, 0xb1, 0x3f, 0x9d, 0xcb, 0xa2, 0xbe, 0x3f, 0x77, 0x80, 0xbe,
  0x12, 0x26, 0xe3, 0xbe, 0x19, 0x7a, 0xb4, 0xbf, 0xcc, 0xf5, 0xef, 0xbf, 0xaa, 0xce, 0xc2, 0x3f, 0x50, 0xb3, 0xdb, 0xbe,
  0x15, 0x6b, 0x86, 0xbf, 0xd8, 0x79, 0x91, 0x3e, 0x5a, 0xd7, 0x04, 0xbf, 0x9a, 0x7d, 0x00, 0xbf, 0x9c, 0xf2, 0xdb, 0x3e,
  0x0b, 0xe7, 0xbd, 0xbf, 0xaf, 0xd9, 0x56, 0x3f, 0xba, 0x8a, 0xe7, 0x3e, 0x60, 0x9d, 0xef, 0x3f, 0x12, 0x7e, 0x51, 0x3f,
  0xd3, 0xe3, 0x55, 0x3f, 0x40, 0x03, 0x8d, 0x3e, 0xd3, 0x12, 0xf4, 0x3e, 0x0a, 0x93, 0xf0, 0xbd, 0x8d, 0x10, 0x2f, 0xbe,
  0x1b, 0x9c, 0x4a, 0xbf, 0xa1, 0xd7, 0x1b, 0x3d, 0xf7, 0x78, 0xbd, 0x3f, 0xeb, 0x47, 0x74, 0x3f, 0x69, 0xbd, 0xd7, 0xbf,
  0x5b, 0xfa, 0xab, 0x3e, 0xc6, 0xe3, 0xe2, 0xbe, 0x2e, 0x2c, 0x23, 0x3f, 0xe3, 0x2c, 0x0a, 0x40, 0xfb, 0xef, 0x95, 0x3e,
  0xa0, 0x50, 0x48, 0xbe, 0x3d, 0x02, 0x04, 0xbd, 0xf3, 0xd1, 0x6c, 0x3c, 0x04, 0x3e, 0x97, 0x3f, 0xcc, 0x3f, 0x66, 0xbe,
  0xbf, 0x88, 0x72, 0x3f, 0x8d, 0xc5, 0xa0, 0xbf, 0x82, 0x5a, 0x34, 0x3f, 0x6b, 0x55, 0x07, 0xbf, 0xbb, 0x05, 0x7c, 0x3f,
  0x70, 0x50, 0x56, 0xbf, 0x58, 0x77, 0xa0, 0xbe, 0xda, 0x0f, 0xf6, 0x3f, 0x07, 0xef, 0xd9, 0x3e, 0xe3, 0x9e, 0xe1, 0x3f,
  0xdc, 0xf3, 0x5d, 0x3f, 0x4d, 0x8c, 0xd6, 0x3f, 0xec, 0xb2, 0x69, 0x3f, 0xe3, 0x59, 0x52, 0x3f, 0x01, 0xbd, 0x59, 0xbf,
  0x62, 0x7f, 0x4f, 0x3f, 0x94, 0x84, 0x8e, 0xbf, 0x59, 0xe6, 0x0a, 0x40, 0xcd, 0x2b, 0x4a, 0xbf, 0xa0, 0xaf, 0x50, 0x3f,
  0xbf, 0x7a, 0x47, 0xbf, 0xea, 0xf6, 0x10, 0xbe, 0xcb, 0x52, 0x71, 0x3f, 0xb9, 0x36, 0xdb, 0x3e, 0x9c, 0x4f, 0x56, 0x3f,
  0x42, 0xe1, 0x9f, 0x3f, 0x1e, 0xf9, 0xa7, 0xbf, 0x34, 0xae, 0x80, 0xbf, 0xf9, 0xaa, 0xaf, 0x3f, 0xa3, 0x00, 0xad, 0x3e,
  0x29, 0x5b, 0xfc, 0x3e, 0xda, 0x7d, 0x46, 0x3f, 0x8c, 0x42, 0x61, 0x3f, 0x13, 0x7d, 0x1e, 0xbf, 0x96, 0x6e, 0x8b, 0x3f,
  0x92, 0x69, 0xe0, 0x3e, 0xb2, 0xdd, 0x32, 0xbc, 0x8d, 0x7e, 0x96, 0x3f, 0x88, 0xd9, 0xc6, 0xbf, 0x5f, 0x59, 0x8b, 0x3f,
  0x6d, 0x61, 0x7c, 0xbf, 0x11, 0x9d, 0xb7, 0xbf, 0xb4, 0xab, 0xad, 0x3e, 0x21, 0xb2, 0xa7, 0xbf, 0xd0, 0x55, 0xa4, 0xbf,
  0x28, 0x9b, 0x88, 0xbf, 0xe6, 0x2a, 0x5d, 0xbf, 0xe0, 0x89, 0xb2, 0x3e, 0xf7, 0xbc, 0xff, 0x3e, 0x4b, 0x68, 0x26, 0xbf,
  0x4d, 0xb1, 0x0a, 0xc0, 0xb0, 0x16, 0x33, 0xbe, 0xc3, 0x4f, 0x9c, 0xbf, 0x4d, 0x85, 0x2e, 0x3e, 0xdd, 0x1d, 0x06, 0xc0,
  0x09, 0x9b, 0x7a, 0xbe, 0x3a, 0xd5, 0x00, 0x3d, 0x1e, 0x7c, 0xc4, 0xbf, 0x1c, 0x8e, 0x32, 0x3f, 0xf1, 0x9d, 0x33, 0x3f,
  0xc2, 0xc9, 0xa1, 0xbf, 0xd3, 0x77, 0x90, 0xbe, 0xd5, 0x0e, 0x16, 0xbd, 0x81, 0x8f, 0x9c, 0xbe, 0x29, 0x30, 0x9c, 0x3f,
  0x57, 0x17, 0x6a, 0xbf, 0xab, 0x2c, 0xdc, 0xbe, 0x49, 0xd4, 0xc2, 0xbf, 0x81, 0x78, 0x86, 0xbe, 0xce, 0x0c, 0x20, 0x40,
  0x61, 0xef, 0x62, 0xbe, 0xd2, 0x0b, 0xe1, 0x3e, 0xa3, 0xe2, 0x32, 0xbd, 0xd2, 0x55, 0xa5, 0xbf, 0x83, 0x8d, 0x9e, 0x3f,
  0xe8, 0x0a, 0x13, 0xbf, 0x39, 0xb7, 0x4e, 0xbf, 0x2c, 0x41, 0xb3, 0xbf, 0x25, 0xd6, 0x19, 0x3f, 0x7c, 0xb9, 0x70, 0x3f,
  0xbf, 0xe5, 0x8d, 0xbe, 0x8c, 0xe1, 0xd0, 0x3e, 0x4d, 0xa1, 0xff, 0x3d, 0x69, 0x63, 0xfc, 0xbf, 0xf0, 0xf9, 0x5a, 0x3f,
  0xe8, 0xc2, 0x8e, 0x3e, 0xf8, 0xe9, 0xd5, 0xbf, 0xe0, 0x6f, 0xf4, 0x3e, 0x86, 0x47, 0xbc, 0x3e, 0x37, 0x0d, 0x5c, 0x3f,
  0xe2, 0xe1, 0xae, 0xbf, 0xbb, 0x68, 0x33, 0x3e, 0x51, 0x65, 0x6c, 0xbe, 0x25, 0x30, 0x61, 0xbf, 0x47, 0x06, 0xb0, 0x3d,
  0xa2, 0xf4, 0x67, 0xbe, 0x78, 0x21, 0x66, 0x3e, 0x7d, 0xaa, 0xc0, 0x3e, 0x76, 0xc6, 0x8e, 0xbd, 0x3c, 0x0f, 0x80, 0x3f,
  0xbf, 0x70, 0x17, 0xc0, 0x7e, 0x97, 0xb2, 0xbf, 0x7d, 0xf1, 0xd4, 0x3f, 0xd6, 0x20, 0xa0, 0xbe, 0x34, 0xf2, 0x2f, 0x3e,
  0x5c, 0xb6, 0xc3, 0x3e, 0xce, 0x1c, 0xbd, 0xbf, 0x2c, 0x83, 0x19, 0xbf, 0x03, 0x56, 0x2c, 0xbf, 0xd9, 0x24, 0x82, 0xbf,
  0x55, 0x60, 0xec, 0x3f, 0x6f, 0xf2, 0xdf, 0x3d, 0xcb, 0xb5, 0x24, 0xbf, 0x92, 0x44, 0x93, 0xbf, 0xa7, 0xdd, 0xc6, 0x3e,
  0x5e, 0x84, 0x6d, 0x3f, 0xc4, 0x19, 0x93, 0xbf, 0xaf, 0xcb, 0x3f, 0x3f, 0xff, 0x61, 0x3e, 0x3f, 0xcb, 0xca, 0xf1, 0x3f,
  0xd0, 0xa0, 0xb9, 0xbf, 0xde, 0x29, 0x99, 0x3e, 0x29, 0x37, 0x0c, 0x3e, 0xdc, 0x7e, 0xf9, 0x3f, 0xd1, 0x93, 0xb8, 0x3f,
  0x60, 0x91, 0x97, 0x3f, 0x50, 0xad, 0xaa, 0xbf, 0xf2, 0x91, 0x9d, 0x3e, 0x22, 0x8d, 0xca, 0x3e, 0x56, 0xa1, 0x4d, 0xbf,
  0x2d, 0xf6, 0x9c, 0xbe, 0x47, 0x6c, 0x06, 0x40, 0xea, 0xca, 0x67, 0x3f, 0xd4, 0x7b, 0x82, 0x3f, 0x7e, 0xe3, 0x8c, 0x3e,
  0xe0, 0x10, 0x50, 0xbe, 0x73, 0xc4, 0xdb, 0x3e, 0x65, 0xec, 0x84, 0x3f, 0xd5, 0x78, 0x1a, 0x40, 0xe0, 0xbe, 0x0f, 0xbf,
  0x8b, 0x10, 0x89, 0xbe, 0x2c, 0xa1, 0x99, 0xbf, 0x8d, 0x9d, 0x84, 0x3e, 0x2e, 0x15, 0x02, 0xbf, 0x0b, 0x13, 0xd4, 0xbf,
  0x86, 0x75, 0xcc, 0xbf, 0xee, 0x4d, 0xf6, 0x3e, 0xa5, 0xa8, 0x60, 0x3f, 0x12, 0x8e, 0xcd, 0x3f, 0x77, 0x63, 0x87, 0xbf,
  0xbc, 0xc3, 0xa9, 0xbf, 0x88, 0x03, 0x28, 0xbe, 0x7e, 0x49, 0xf8, 0x3e, 0x4d, 0x7e, 0xa7, 0xbf, 0x31, 0x59, 0xf4, 0xbe,
  0x4f, 0x63, 0x16, 0x40, 0xe5, 0x92, 0xd9, 0xbf, 0x14, 0x66, 0x01, 0x3f, 0xdf, 0xdf, 0x68, 0xbf, 0xd7, 0x2f, 0xd8, 0x3f,
  0x9e, 0x09, 0x26, 0xbf, 0xb2, 0xad, 0x64, 0xbf, 0xca, 0xdb, 0x8f, 0xbf, 0x77, 0x36, 0xec, 0x3e, 0xc6, 0x8e, 0xe6, 0xbd,
  0xb6, 0xab, 0xdc, 0xbf, 0x56, 0xa7, 0xb6, 0x3e, 0xb1, 0xb8, 0xce, 0x3f, 0x4a, 0xb8, 0x08, 0xbe, 0xa8, 0x6d, 0x22, 0xc0,
  0xea, 0xe0, 0x08, 0x3e, 0x66, 0xa3, 0x1c, 0x3f, 0x1a, 0x59, 0x21, 0xbf, 0x48, 0x9a, 0x81, 0x3f, 0x7f, 0xc3, 0x2c, 0x3f,
  0xcc, 0x5e, 0xa8, 0xbf, 0x4b, 0xb3, 0x87, 0x3f, 0x5c, 0xa0, 0x89, 0xbe, 0xc8, 0x25, 0xbf, 0xbf, 0x52, 0xee, 0x6d, 0x3f,
  0x3f, 0x27, 0x96, 0xbf, 0xd7, 0x0d, 0x05, 0xc0, 0x10, 0x12, 0x24, 0xc0, 0x55, 0xa5, 0x72, 0xbd, 0xa7, 0x38, 0x01, 0x40,
  0x71, 0x97, 0x51, 0xbe, 0x83, 0xf2, 0x05, 0xc0, 0x46, 0x8c, 0x28, 0xbe, 0x87, 0x5c, 0x61, 0xbf, 0xe3, 0x17, 0xa2, 0x3e,
  0x96, 0xe1, 0x89, 0x3f, 0x2b, 0x23, 0xb8, 0xbe, 0x37, 0x03, 0x31, 0xbe, 0xf4, 0x99, 0x5f, 0xbf, 0xab, 0x85, 0x32, 0x3f,
  0x52, 0x6c, 0x80, 0xbf, 0xf7, 0x0b, 0xe6, 0xbe, 0x64, 0xa0, 0x20, 0x3f, 0x5f, 0xd6, 0x75, 0xbf, 0xac, 0x9d, 0x55, 0x3f,
  0x10, 0x94, 0x6d, 0xbf, 0x25, 0x18, 0x9c, 0xbe, 0xe8, 0x14, 0x8e, 0x3f, 0x1d, 0x9b, 0x05, 0x3d, 0x51, 0xbb, 0xa3, 0x3e,
  0x8c, 0x3d, 0x3a, 0xbf, 0x8b, 0xf5, 0x15, 0x3f, 0xf9, 0x9f, 0xdc, 0x3d, 0x51, 0xae, 0x80, 0x3f, 0x2e, 0x5a, 0x95, 0x3f,
  0x4b, 0xa9, 0xc5, 0xbe, 0x8c, 0x7c, 0xfc, 0x3e, 0xfd, 0x3d, 0x77, 0x3f, 0x75, 0x59, 0x2b, 0xbf, 0xd5, 0xb6, 0xe3, 0xbd,
  0x35, 0xef, 0x46, 0x3e, 0xb0, 0x46, 0xad, 0x3f, 0x48, 0x87, 0x05, 0xbf, 0x2b, 0x58, 0x8d, 0x3f, 0x6d, 0x15, 0xe0, 0xbf,
  0xe5, 0xbe, 0x40, 0xbe, 0x70, 0x2f, 0x40, 0xbe, 0x75, 0x69, 0xf8, 0xbe, 0xe2, 0x93, 0x07, 0xbf, 0xae, 0xa3, 0x04, 0x40,
  0xa7, 0xca, 0xd2, 0x3e, 0x19, 0xfb, 0xfe, 0x3e, 0x83, 0xfa, 0xf7, 0xbe, 0x13, 0x7a, 0x0a, 0xc0, 0x9a, 0x20, 0xa3, 0x3e,
  0xa2, 0xcf, 0xf4, 0xbd, 0xfd, 0x85, 0x1e, 0xbd, 0x88, 0x4d, 0xfe, 0x3f, 0xae, 0xcd, 0x06, 0xbf, 0xc3, 0xb7, 0xca, 0x3f,
  0x82, 0xa3, 0x67, 0x3f, 0xf4, 0x40, 0xbc, 0x3e, 0xcf, 0x3f, 0xbb, 0x3f, 0x9a, 0x37, 0x48, 0x3e, 0xe1, 0x66, 0xbb, 0xbe,
  0x11, 0x24, 0xb3, 0xbf, 0x22, 0x68, 0x52, 0xbc, 0x71, 0xe7, 0x70, 0x3f, 0xa4, 0x2f, 0x8e, 0xbf, 0xaf, 0xea, 0x1a, 0x3f,
  0x82, 0x2d, 0xee, 0x3d, 0x68, 0x0e, 0xf2, 0xbf, 0x1d, 0x46, 0x1d, 0x3f, 0x76, 0x30, 0x4a, 0x3f, 0x7a, 0xc4, 0x32, 0x3f,
  0x4c, 0x04, 0x1b, 0x3f, 0xd6, 0x28, 0x05, 0x3e, 0x29, 0x4e, 0xcb, 0xbf, 0xa4, 0x80, 0x2b, 0xbe, 0x08, 0x2b, 0xaa, 0x3d,
  0x22, 0x7d, 0x6b, 0xbf, 0xbd, 0xf7, 0xa7, 0x3e, 0x84, 0x2e, 0xdb, 0xbe, 0xe1, 0x9a, 0x1a, 0xbe, 0xce, 0xc5, 0xbe, 0x3e,
  0x2e, 0xb9, 0xa4, 0xbf, 0x44, 0x6b, 0x29, 0x3e, 0xde, 0x41, 0x3d, 0x3e, 0xae, 0x8b, 0x9d, 0x3e, 0xa1, 0x60, 0x00, 0xc0,
  0x8c, 0xc1, 0x85, 0xbf, 0xf2, 0x7f, 0xce, 0xbe, 0x2f, 0xd2, 0x62, 0xbf, 0x4f, 0x9b, 0xbb, 0x3f, 0xcd, 0x22, 0x7a, 0x3f,
  0x6f, 0x5a, 0x7a, 0x3f, 0xee, 0xb8, 0x94, 0xbe, 0x28, 0x2d, 0x15, 0xbd, 0xdf, 0x1c, 0xfd, 0x3e, 0xce, 0x8f, 0x84, 0xbf,
  0xfc, 0xb7, 0x6d, 0xbf, 0xb9, 0x5f, 0x88, 0xbf, 0x89, 0xbd, 0x85, 0xbf, 0xda, 0x7a, 0x04, 0x40, 0x72, 0xaa, 0x16, 0xbf,
  0x5e, 0x8e, 0xa9, 0xbf, 0x64, 0xdb, 0x23, 0x3f, 0x5a, 0x9b, 0x53, 0xbf, 0x4a, 0x1c, 0x3f, 0x3f, 0xee, 0x1a, 0x34, 0xbe,
  0x2a, 0x9f, 0x3b, 0x3f, 0xf8, 0x52, 0x01, 0x3d, 0xe2, 0x04, 0xbc, 0xbf, 0xc8, 0x0c, 0x6d, 0x3e, 0x39, 0xf9, 0x8a, 0xbf,
  0x7c, 0xe7, 0x25, 0x40, 0xe3, 0xe2, 0xf5, 0x3f, 0x6f, 0x81, 0x81, 0x3e, 0xe0, 0xc1, 0x9a, 0x3f, 0x4d, 0x53, 0x1b, 0x3f,
  0x41, 0x03, 0xb7, 0xbf, 0x9c, 0x38, 0x1f, 0x40, 0x1d, 0x80, 0x17, 0x3d, 0x75, 0x1f, 0x66, 0x3f, 0xf1, 0xf1, 0x24, 0xc0,
  0x23, 0xe3, 0xe3, 0xbe, 0xea, 0xf0, 0xd3, 0x3f, 0xc1, 0xb5, 0xee, 0xbe, 0xfd, 0x9c, 0x2b, 0xbf, 0x3d, 0x09, 0xcb, 0x3f,
  0xbf, 0x90, 0x30, 0x3f, 0xbd, 0xb8, 0x7b, 0xbf, 0x5f, 0x1d, 0xdf, 0x3e, 0x4a, 0x2a, 0x5b, 0x3e, 0x7e, 0x38, 0x73, 0x3f,
  0x07, 0xff, 0x9f, 0xbf, 0x97, 0x81, 0x45, 0x3f, 0xe4, 0xd2, 0xe3, 0xbf, 0x93, 0x64, 0xb9, 0xbf, 0xf1, 0xa1, 0xb3, 0xbf,
  0xdc, 0xba, 0x07, 0xbf, 0x9f, 0xb3, 0x1f, 0x3f, 0xa4, 0xec, 0x94, 0xbf, 0x0e, 0x4d, 0x06, 0x40, 0x6d, 0x6f, 0x16, 0xbf,
  0xa3, 0xa9, 0xf8, 0x3e, 0xb2, 0xd7, 0xb6, 0xbf, 0x21, 0xf5, 0x2a, 0xbf, 0xbc, 0xd8, 0xf5, 0x3f, 0xd6, 0x48, 0xab, 0xbe,
  0xca, 0xba, 0xb4, 0x3f, 0x02, 0xb4, 0xbc, 0xbe, 0x1d, 0xd3, 0xea, 0xbf, 0xe4, 0x27, 0xbb, 0x3e, 0x2a, 0x28, 0x20, 0xbe,
  0xc3, 0x1a, 0xbc, 0x3e, 0xc5, 0x5b, 0x2e, 0x3f, 0x62, 0x29, 0xc0, 0x3f, 0x23, 0x88, 0x47, 0x3e, 0xb3, 0x28, 0xbb, 0x3f,
  0x39, 0xc6, 0x0b, 0xbf, 0x00, 0x78, 0x20, 0xbf, 0x3c, 0xb9, 0x32, 0x3d, 0xa0, 0x59, 0x13, 0x40, 0xab, 0x4f, 0x26, 0x3f,
  0xd0, 0x47, 0xe4, 0xbe, 0xeb, 0xd9, 0xbe, 0xbf, 0xa4, 0xa7, 0xb7, 0xbf, 0x89, 0xfc, 0xa7, 0xbf, 0xd8, 0x3d, 0x96, 0x3e,
  0xa4, 0x58, 0x36, 0xbf, 0xc4, 0x05, 0xc3, 0xbe, 0x02, 0x62, 0x3c, 0x3e, 0x98, 0x30, 0x0b, 0x3e, 0xf3, 0x8f, 0x5b, 0x3f,
  0x48, 0x97, 0xc7, 0x3f, 0x13, 0x8c, 0xac, 0xbf, 0x09, 0xc7, 0xed, 0x3f, 0x7d, 0x0c, 0x21, 0x3f, 0xc1, 0xd2, 0x69, 0x3f,
  0xa7, 0x5f, 0x8c, 0x3e, 0x23, 0xd6, 0x99, 0xbf, 0x13, 0xce, 0x9d, 0xbf, 0x7a, 0x98, 0x4b, 0x3f, 0xef, 0x33, 0xca, 0xbf,
  0x5e, 0x0f, 0x74, 0x3f, 0x18, 0x9e, 0xc8, 0xbf, 0x3b, 0x60, 0x28, 0xbe, 0xe6, 0xff, 0x2c, 0x3f, 0xce, 0x88, 0xb2, 0xbf,
  0xf1, 0xa8, 0x05, 0xc0, 0xc7, 0x58, 0x82, 0xbf, 0x47, 0xc2, 0x7d, 0x3f, 0x65, 0xb9, 0x8c, 0x3d, 0x28, 0xff, 0x1b, 0xbf,
  0x3c, 0xe5, 0xf1, 0x3d, 0xd2, 0x17, 0x68, 0xbf, 0xc1, 0x50, 0x81, 0xbf, 0xe9, 0x1d, 0x11, 0x3f, 0xeb, 0xaa, 0x20, 0x3f,
  0x42, 0x22, 0x41, 0xbf, 0xb8, 0x0d, 0xfb, 0xbe, 0x6e, 0x69, 0x39, 0x3e, 0x29, 0xe6, 0x7d, 0xbf, 0x36, 0x52, 0x8a, 0xbe,
  0x04, 0x9a, 0x89, 0xbf, 0x14, 0x82, 0x81, 0xbf, 0xae, 0x82, 0xc8, 0x3e, 0xdb, 0x5d, 0x46, 0x3f, 0x09, 0x23, 0x98, 0xbe,
  0x3d, 0x1e, 0x6a, 0x3f, 0x89, 0xb0, 0xcc, 0xbf, 0xd0, 0x3d, 0x2b, 0x3f, 0x96, 0x19, 0x5a, 0x3f, 0x21, 0x22, 0xa8, 0x3e,
  0x24, 0xce, 0xc9, 0xbf, 0x28, 0x87, 0x5d, 0xbe, 0x18, 0x73, 0x13, 0x3f, 0x16, 0xed, 0x99, 0xbe, 0xaf, 0x94, 0x94, 0xbe,
  0xea, 0x44, 0x5f, 0x3f, 0xbc, 0x14, 0x5d, 0xbf, 0x33, 0x04, 0xd6, 0x3e, 0xb0, 0x8e, 0xbd, 0xbe, 0x5f, 0x46, 0xd2, 0xbe,
  0x39, 0x9d, 0xe5, 0x3f, 0xa2, 0x28, 0x52, 0xbf, 0x79, 0x11, 0x2b, 0xbf, 0xca, 0xd3, 0x95, 0x3e, 0xcf, 0x04, 0x88, 0x3e,
  0xea, 0x6a, 0x6f, 0xbf, 0x61, 0x93, 0xe9, 0xbf, 0x20, 0xcc, 0xc4, 0x3f, 0x53, 0xad, 0x94, 0x3f, 0x0b, 0xb2, 0x89, 0xbf,
  0x9d, 0xdd, 0x30, 0xbe, 0x34, 0xdc, 0x90, 0x3f, 0xab, 0x60, 0x7a, 0x3e, 0xbd, 0xef, 0x0e, 0xc0, 0xaf, 0x84, 0x76, 0x3e,
  0x7d, 0xd6, 0x7b, 0xbe, 0xd7, 0xf8, 0x98, 0xbe, 0x4b, 0x30, 0xa6, 0x3f, 0xe2, 0x37, 0x0c, 0x3f, 0x6b, 0x53, 0x38, 0x3f,
  0xc4, 0xa4, 0x16, 0x3f, 0xbd, 0x47, 0xf9, 0xbf, 0x8f, 0x24, 0xb8, 0x3e, 0x43, 0x85, 0x8a, 0xbf, 0xb4, 0x84, 0x7e, 0x3f,
  0xd2, 0x67, 0x53, 0xbf, 0xac, 0x97, 0xed, 0xbf, 0xc0, 0xa7, 0x76, 0x3f, 0xed, 0x7f, 0x1b, 0x3f, 0x34, 0x60, 0x80, 0xbe,
  0xc5, 0x99, 0x67, 0x3e, 0x87, 0x83, 0x1b, 0xbf, 0x0c, 0xca, 0x7d, 0x3e, 0x2e, 0x98, 0x1e, 0xbf, 0x23, 0xd7, 0xa9, 0xbe,
  0x51, 0xed, 0x7b, 0x3f, 0xf7, 0x76, 0x48, 0x3e, 0xfd, 0xf6, 0x18, 0xbf, 0x2a, 0x05, 0x8a, 0xbe, 0x7a, 0x14, 0x34, 0x3f,
  0x6b, 0xc5, 0x9e, 0x3f, 0x85, 0x80, 0x02, 0x3f, 0xaf, 0xef, 0xc5, 0x3e, 0xb3, 0xbd, 0xbc, 0xbd, 0x78, 0xf7, 0x72, 0x3f,
  0x4c, 0xa0, 0x83, 0xbe, 0x6a, 0xce, 0xf4, 0xbf, 0x51, 0xfe, 0x6a, 0xbf, 0x76, 0xdd, 0xaf, 0xbc, 0x7c, 0xa0, 0x93, 0xbe,
  0x1b, 0xf1, 0x42, 0x3f, 0xb7, 0x21, 0x08, 0xbe, 0x3a, 0xdb, 0x2c, 0x3f, 0x74, 0x46, 0x0a, 0xbe, 0x0a, 0x66, 0x97, 0xbe,
  0xce, 0xcb, 0x55, 0xbf, 0x0c, 0x3c, 0x2e, 0x3f, 0x76, 0x56, 0x16, 0xbf, 0xf1, 0xe8, 0xd1, 0xbf, 0xfa, 0x42, 0x38, 0x3f,
  0xb6, 0x66, 0x0b, 0xc0, 0xac, 0x41, 0xa8, 0xbe, 0xba, 0x68, 0xb5, 0x3f, 0x0c, 0x0d, 0x0c, 0x3e, 0xd1, 0x8a, 0xa6, 0xbe,
  0x74, 0xc0, 0xd3, 0x3e, 0x62, 0x61, 0x29, 0x3f, 0xb9, 0x0d, 0xe1, 0x3f, 0x7c, 0x2b, 0x72, 0x3e, 0x6e, 0x2c, 0xad, 0xbe,
  0x52, 0xde, 0xf2, 0xbe, 0xa9, 0x71, 0xe4, 0xbe, 0xb4, 0xb1, 0xac, 0x3e, 0x8f, 0x35, 0x7b, 0x3f, 0x57, 0x92, 0xb6, 0x3f,
  0xcd, 0x85, 0xbd, 0x3e, 0x2c, 0x0e, 0x56, 0xbf, 0x0a, 0x7d, 0x61, 0xbf, 0xb9, 0xd8, 0x2f, 0x3c, 0x71, 0x0b, 0x15, 0x3e,
  0xce, 0x38, 0x72, 0x3e, 0xea, 0xf0, 0x95, 0x3f, 0xe7, 0xd1, 0x9e, 0x3e, 0x2e, 0x86, 0xcd, 0xbf, 0x90, 0xa3, 0x04, 0x3b,
  0xba, 0x2e, 0x4f, 0xbf, 0xc4, 0x75, 0x2d, 0x3f, 0x45, 0x89, 0xfd, 0xbf, 0xe5, 0x13, 0x0e, 0xbf, 0xf5, 0x8a, 0x91, 0xbd,
  0x04, 0x6b, 0xc8, 0xbf, 0xec, 0x36, 0x48, 0xbf, 0xa9, 0x28, 0x18, 0xbf, 0xbf, 0x2c, 0xff, 0xbe, 0xf9, 0x59, 0x31, 0x3d,
  0x66, 0x84, 0x75, 0xbf, 0x5c, 0xca, 0xae, 0xbf, 0x2e, 0xe6, 0x85, 0xbf, 0xf0, 0x1f, 0xad, 0x3e, 0x72, 0x3a, 0x19, 0xbf,
  0xd2, 0x30, 0xd9, 0xbf, 0xe2, 0x84, 0x0b, 0xc0, 0x19, 0xd9, 0x39, 0x3f, 0x01, 0xd2, 0x0c, 0xbf, 0x68, 0x22, 0x12, 0xbf,
  0x70, 0x3b, 0xa6, 0xbf, 0x4c, 0x86, 0x78, 0xbf, 0x1d, 0x61, 0xef, 0x3f, 0x2a, 0xe1, 0x21, 0x3f, 0x16, 0x4b, 0x2d, 0x3f,
  0x8a, 0x24, 0xdd, 0xbf, 0x0d, 0xe8, 0x00, 0xc0, 0x2b, 0x19, 0x33, 0xbf, 0xeb, 0x4e, 0xc5, 0x3d, 0xdc, 0x38, 0xaa, 0xbf,
  0x1c, 0x2b, 0xa8, 0xbf, 0x15, 0xed, 0x64, 0x3f, 0x9b, 0x7e, 0xf9, 0xbf, 0x5b, 0xca, 0xa2, 0x3f, 0x32, 0x21, 0x95, 0xbe,
  0x62, 0xfb, 0xa1, 0xbe, 0x02, 0x5e, 0x27, 0x3e, 0xe7, 0xc9, 0xa3, 0x3e, 0x4a, 0x7b, 0x99, 0xbf, 0xb6, 0x70, 0x83, 0xbf,
  0xf0, 0x8c, 0xf4, 0x3d, 0x1d, 0xe4, 0xc7, 0x3f, 0xb6, 0x7a, 0xd9, 0xbe, 0x62, 0xfa, 0x36, 0xbf, 0xd2, 0x53, 0xf4, 0x3e,
  0x03, 0x68, 0xe5, 0x3f, 0x0e, 0x9c, 0x9f, 0xbe, 0x5f, 0x05, 0x76, 0xbe, 0xae, 0xbf, 0xe2, 0x3e, 0xee, 0xbb, 0xbb, 0x3d,
  0x47, 0x55, 0x21, 0xbe, 0xbb, 0x85, 0xdf, 0xbf, 0x79, 0x4d, 0x90, 0x3f, 0xc4, 0x0e, 0x0d, 0xc0, 0x2c, 0xc3, 0xfc, 0xbe,
  0x95, 0xbe, 0xb9, 0xbf, 0x67, 0xdb, 0xd3, 0x3e, 0x6e, 0xc0, 0x20, 0x3e, 0x46, 0x44, 0x0a, 0x40, 0x1f, 0xb9, 0x30, 0xbb,
  0x06, 0x3a, 0xc3, 0xbf, 0x44, 0x98, 0x89, 0x3f, 0xc6, 0x89, 0xaf, 0xbf, 0x7b, 0xc9, 0xa8, 0xbf, 0x02, 0xc4, 0x03, 0x3f,
  0xf6, 0x99, 0x28, 0x3f, 0x2c, 0x56, 0x29, 0xbf, 0x30, 0x79, 0x48, 0x3f, 0x8b, 0x9b, 0xf4, 0xbe, 0xd7, 0x28, 0x74, 0xbf,
  0x3d, 0x89, 0x04, 0xbf, 0x47, 0xa4, 0xc3, 0x3f, 0x82, 0xa9, 0x49, 0x3f, 0xfb, 0xb1, 0x90, 0xbe, 0xbd, 0xcc, 0xda, 0xbf,
  0x19, 0x00, 0x61, 0x3f, 0xab, 0xe9, 0xbd, 0x3d, 0x9e, 0x69, 0x9c, 0x3f, 0x16, 0x6b, 0x95, 0x3e, 0xcb, 0x3a, 0xcf, 0x3f,
  0x7e, 0x58, 0xae, 0xbf, 0x9f, 0x5d, 0x6c, 0xbf, 0x6a, 0x8f, 0x20, 0x40, 0x7a, 0x42, 0x9f, 0xbe, 0xa4, 0x48, 0x4c, 0x3f,
  0xff, 0xcb, 0x9e, 0x3e, 0xaa, 0x7d, 0x27, 0x3f, 0xc0, 0xa7, 0x6c, 0x3f, 0xd4, 0x87, 0xe4, 0xbe, 0xb2, 0x01, 0xc9, 0xbf,
  0xa9, 0xa6, 0x7c, 0xbf, 0xb3, 0xe2, 0xeb, 0x3f, 0x4c, 0x5f, 0xad, 0x3e, 0x05, 0x9e, 0x30, 0xbd, 0xf5, 0x4c, 0x1e, 0xc0,
  0x47, 0xbb, 0x72, 0xbf, 0xf7, 0x3a, 0x11, 0xbe, 0xc2, 0xbc, 0x8e, 0xbf, 0x04, 0xca, 0xa9, 0xbf, 0xf8, 0xfd, 0x46, 0x3e,
  0xba, 0x35, 0x69, 0x3f, 0x5f, 0xf3, 0x70, 0xbf, 0xf6, 0xb4, 0x6f, 0xbf, 0x77, 0xca, 0xcd, 0x3e, 0xc0, 0x96, 0x71, 0x3f,
  0xf9, 0x1e, 0x08, 0x40, 0xf4, 0x44, 0x01, 0x40, 0x3f, 0x71, 0x40, 0x3f, 0x66, 0x18, 0x91, 0x3f, 0xe5, 0xa6, 0x92, 0x3f,
  0xed, 0xb0, 0x85, 0x3f, 0x91, 0x12, 0x33, 0xbd, 0xfe, 0x91, 0x0c, 0x3d, 0xbc, 0xaa, 0xa3, 0x3f, 0x2c, 0xbc, 0x95, 0x3e,
  0xe1, 0x05, 0x72, 0xbf, 0x31, 0x54, 0xa8, 0xbf, 0xfb, 0x0a, 0x1d, 0x3d, 0x76, 0xc8, 0x81, 0xbe, 0x65, 0xef, 0x8d, 0xbf,
  0x59, 0x07, 0xb0, 0x3f, 0x49, 0x3b, 0x83, 0xbf, 0x9e, 0xe8, 0x4b, 0x3f, 0xa2, 0x8f, 0x46, 0xbf, 0xf4, 0x5a, 0x26, 0x3e,
  0xd1, 0x6b, 0x25, 0xb9, 0x7f, 0x71, 0x20, 0xbf, 0x04, 0xaa, 0xb8, 0xbf, 0xad, 0x53, 0x20, 0xbd, 0x48, 0xd0, 0xb9, 0xbf,
  0x02, 0x1f, 0xaa, 0xbe, 0x34, 0x14, 0x0c, 0xbe, 0x1a, 0xb8, 0x20, 0x40, 0x55, 0x5a, 0xf9, 0x3f, 0x2d, 0x4c, 0xb2, 0xbe,
  0x5a, 0x87, 0x8b, 0xbe, 0x93, 0xd7, 0x14, 0xbf, 0xc2, 0x7d, 0xa9, 0x3e, 0xea, 0xd9, 0xaf, 0xbe, 0x85, 0xaa, 0xf7, 0xbd,
  0x45, 0x11, 0x97, 0x3f, 0x66, 0x1c, 0xbb, 0xbd, 0x64, 0xa2, 0x7e, 0xbe, 0x27, 0x9c, 0x74, 0xbf, 0x46, 0xc4, 0x15, 0x3f,
  0x29, 0x58, 0xd2, 0xbe, 0x5e, 0x7c, 0x33, 0x3f, 0x9b, 0x17, 0xfb, 0x3f, 0xdb, 0xd6, 0x12, 0xbf, 0xfc, 0xb7, 0x88, 0xbf,
  0x4d, 0x38, 0xce, 0x3e, 0xfc, 0x33, 0xbf, 0x3f, 0xca, 0xb3, 0xbc, 0x3e, 0x25, 0xb5, 0x19, 0x3f, 0xcb, 0xed, 0xe6, 0x3d,
  0x68, 0x12, 0x09, 0x3e, 0xf4, 0xc5, 0x69, 0xbe, 0x1e, 0x3f, 0x03, 0xbf, 0x90, 0x16, 0x80, 0x3e, 0xfc, 0xdc, 0xd1, 0xbe,
  0x09, 0x14, 0x90, 0x3f, 0xfc, 0xa2, 0x57, 0x3f, 0x9b, 0x30, 0x79, 0x3e, 0x1c, 0x2c, 0x27, 0xbf, 0xd3, 0x48, 0xec, 0xbe,
  0xa4, 0xf7, 0xc1, 0xbd, 0x32, 0x4d, 0xcb, 0xbf, 0x5c, 0xf2, 0xcd, 0xbe, 0x60, 0xc6, 0x3a, 0xbd, 0x1e, 0xb4, 0x83, 0xbf,
  0x73, 0x1d, 0x0e, 0x40, 0x36, 0xd3, 0x3c, 0x3b, 0x64, 0xd0, 0x57, 0x3f, 0x78, 0x7d, 0xda, 0x3d, 0x0c, 0x76, 0x64, 0xbe,
  0x0f, 0x53, 0xa9, 0xbf, 0x00, 0x00, 0x06, 0x00, 0x08, 0x00, 0x04, 0x00, 0x06, 0x00, 0x00, 0x00, 0x04, 0x00, 0x00, 0x00,
  0x28, 0x00, 0x00, 0x00, 0x7b, 0x51, 0xfa, 0x3e, 0xb9, 0x46, 0x0c, 0x3f, 0x7b, 0xbb, 0x75, 0x3e, 0x26, 0xa5, 0x53, 0xbe,
  0x6e, 0x0b, 0xbf, 0x3e, 0x99, 0xc6, 0x18, 0x3c, 0x56, 0xb4, 0xc0, 0xbe, 0x5b, 0x9d, 0xe1, 0xbe, 0x61, 0x29, 0x01, 0x3e,
  0xf6, 0x3f, 0xe2, 0x3d, 0xf0, 0xfd, 0xff, 0xff, 0xf4, 0xfd, 0xff, 0xff, 0x0f, 0x00, 0x00, 0x00, 0x4d, 0x4c, 0x49, 0x52,
  0x20, 0x43, 0x6f, 0x6e, 0x76, 0x65, 0x72, 0x74, 0x65, 0x64, 0x2e, 0x00, 0x01, 0x00, 0x00, 0x00, 0x14, 0x00, 0x00, 0x00,
  0x00, 0x00, 0x0e, 0x00, 0x18, 0x00, 0x14, 0x00, 0x10, 0x00, 0x0c, 0x00, 0x08, 0x00, 0x04, 0x00, 0x0e, 0x00, 0x00, 0x00,
  0x14, 0x00, 0x00, 0x00, 0x1c, 0x00, 0x00, 0x00, 0x60, 0x00, 0x00, 0x00, 0x64, 0x00, 0x00, 0x00, 0x68, 0x00, 0x00, 0x00,
  0x04, 0x00, 0x00, 0x00, 0x6d, 0x61, 0x69, 0x6e, 0x00, 0x00, 0x00, 0x00, 0x01, 0x00, 0x00, 0x00, 0x14, 0x00, 0x00, 0x00,
  0x00, 0x00, 0x0e, 0x00, 0x14, 0x00, 0x00, 0x00, 0x10, 0x00, 0x0c, 0x00, 0x0b, 0x00, 0x04, 0x00, 0x0e, 0x00, 0x00, 0x00,
  0x10, 0x00, 0x00, 0x00, 0x00, 0x00, 0x00, 0x08, 0x0c, 0x00, 0x00, 0x00, 0x10, 0x00, 0x00, 0x00, 0x74, 0xfe, 0xff, 0xff,
  0x01, 0x00, 0x00, 0x00, 0x03, 0x00, 0x00, 0x00, 0x03, 0x00, 0x00, 0x00, 0x00, 0x00, 0x00, 0x00, 0x02, 0x00, 0x00, 0x00,
  0x01, 0x00, 0x00, 0x00, 0x01, 0x00, 0x00, 0x00, 0x03, 0x00, 0x00, 0x00, 0x01, 0x00, 0x00, 0x00, 0x00, 0x00, 0x00, 0x00,
  0x04, 0x00, 0x00, 0x00, 0x34, 0x01, 0x00, 0x00, 0xc4, 0x00, 0x00, 0x00, 0x60, 0x00, 0x00, 0x00, 0x04, 0x00, 0x00, 0x00,
  0xf2, 0xfe, 0xff, 0xff, 0x00, 0x00, 0x00, 0x01, 0x14, 0x00, 0x00, 0x00, 0x1c, 0x00, 0x00, 0x00, 0x1c, 0x00, 0x00, 0x00,
  0x04, 0x00, 0x00, 0x00, 0x34, 0x00, 0x00, 0x00, 0x02, 0x00, 0x00, 0x00, 0xff, 0xff, 0xff, 0xff, 0x0a, 0x00, 0x00, 0x00,
  0xdc, 0xfe, 0xff, 0xff, 0x1b, 0x00, 0x00, 0x00, 0x53, 0x74, 0x61, 0x74, 0x65, 0x66, 0x75, 0x6c, 0x50, 0x61, 0x72, 0x74,
  0x69, 0x74, 0x69, 0x6f, 0x6e, 0x65, 0x64, 0x43, 0x61, 0x6c, 0x6c, 0x5f, 0x31, 0x3a, 0x30, 0x00, 0x02, 0x00, 0x00, 0x00,
  0x01, 0x00, 0x00, 0x00, 0x0a, 0x00, 0x00, 0x00, 0xb6, 0xff, 0xff, 0xff, 0x00, 0x00, 0x00, 0x01, 0x10, 0x00, 0x00, 0x00,
  0x10, 0x00, 0x00, 0x00, 0x03, 0x00, 0x00, 0x00, 0x28, 0x00, 0x00, 0x00, 0x24, 0xff, 0xff, 0xff, 0x1b, 0x00, 0x00, 0x00,
  0x73, 0x65, 0x71, 0x75, 0x65, 0x6e, 0x74, 0x69, 0x61, 0x6c, 0x5f, 0x31, 0x2f, 0x64, 0x65, 0x6e, 0x73, 0x65, 0x5f, 0x31,
  0x2f, 0x4d, 0x61, 0x74, 0x4d, 0x75, 0x6c, 0x00, 0x02, 0x00, 0x00, 0x00, 0x0a, 0x00, 0x00, 0x00, 0x64, 0x00, 0x00, 0x00,
  0x00, 0x00, 0x16, 0x00, 0x18, 0x00, 0x14, 0x00, 0x00, 0x00, 0x10, 0x00, 0x0c, 0x00, 0x08, 0x00, 0x00, 0x00, 0x00, 0x00,
  0x00, 0x00, 0x07, 0x00, 0x16, 0x00, 0x00, 0x00, 0x00, 0x00, 0x00, 0x01, 0x10, 0x00, 0x00, 0x00, 0x10, 0x00, 0x00, 0x00,
  0x02, 0x00, 0x00, 0x00, 0x38, 0x00, 0x00, 0x00, 0x84, 0xff, 0xff, 0xff, 0x2b, 0x00, 0x00, 0x00, 0x73, 0x65, 0x71, 0x75,
  0x65, 0x6e, 0x74, 0x69, 0x61, 0x6c, 0x5f, 0x31, 0x2f, 0x64, 0x65, 0x6e, 0x73, 0x65, 0x5f, 0x31, 0x2f, 0x42, 0x69, 0x61,
  0x73, 0x41, 0x64, 0x64, 0x2f, 0x52, 0x65, 0x61, 0x64, 0x56, 0x61, 0x72, 0x69, 0x61, 0x62, 0x6c, 0x65, 0x4f, 0x70, 0x00,
  0x01, 0x00, 0x00, 0x00, 0x0a, 0x00, 0x00, 0x00, 0x00, 0x00, 0x16, 0x00, 0x1c, 0x00, 0x18, 0x00, 0x00, 0x00, 0x14, 0x00,
  0x10, 0x00, 0x0c, 0x00, 0x00, 0x00, 0x00, 0x00, 0x08, 0x00, 0x07, 0x00, 0x16, 0x00, 0x00, 0x00, 0x00, 0x00, 0x00, 0x01,
  0x14, 0x00, 0x00, 0x00, 0x20, 0x00, 0x00, 0x00, 0x20, 0x00, 0x00, 0x00, 0x01, 0x00, 0x00, 0x00, 0x3c, 0x00, 0x00, 0x00,
  0x02, 0x00, 0x00, 0x00, 0xff, 0xff, 0xff, 0xff, 0x64, 0x00, 0x00, 0x00, 0x04, 0x00, 0x04, 0x00, 0x04, 0x00, 0x00, 0x00,
  0x1e, 0x00, 0x00, 0x00, 0x73, 0x65, 0x72, 0x76, 0x69, 0x6e, 0x67, 0x5f, 0x64, 0x65, 0x66, 0x61, 0x75, 0x6c, 0x74, 0x5f,
  0x6b, 0x65, 0x72, 0x61, 0x73, 0x5f, 0x74, 0x65, 0x6e, 0x73, 0x6f, 0x72, 0x3a, 0x30, 0x00, 0x00, 0x02, 0x00, 0x00, 0x00,
  0x01, 0x00, 0x00, 0x00, 0x64, 0x00, 0x00, 0x00, 0x01, 0x00, 0x00, 0x00, 0x10, 0x00, 0x00, 0x00, 0x0c, 0x00, 0x0c, 0x00,
  0x0b, 0x00, 0x00, 0x00, 0x00, 0x00, 0x04, 0x00, 0x0c, 0x00, 0x00, 0x00, 0x09, 0x00, 0x00, 0x00, 0x00, 0x00, 0x00, 0x09,
};
const unsigned int model_flatbuffer_fp32_len = 5140;
#endif // __MODEL_FLATBUFFER_FP32_H
